const unsigned char model[] = {
  0x1c, 0x00, 0x00, 0x00, 0x54, 0x46, 0x4c, 0x33, 0x14, 0x00, 0x20, 0x00,
  0x1c, 0x00, 0x18, 0x00, 0x14, 0x00, 0x10, 0x00, 0x0c, 0x00, 0x00, 0x00,
  0x08, 0x00, 0x04, 0x00, 0x14, 0x00, 0x00, 0x00, 0x1c, 0x00, 0x00, 0x00,
  0x90, 0x00, 0x00, 0x00, 0xe8, 0x00, 0x00, 0x00, 0x18, 0x08, 0x00, 0x00,
  0x28, 0x08, 0x00, 0x00, 0xe4, 0x0d, 0x00, 0x00, 0x03, 0x00, 0x00, 0x00,
  0x01, 0x00, 0x00, 0x00, 0x10, 0x00, 0x00, 0x00, 0x00, 0x00, 0x0a, 0x00,
  0x10, 0x00, 0x0c, 0x00, 0x08, 0x00, 0x04, 0x00, 0x0a, 0x00, 0x00, 0x00,
  0x0c, 0x00, 0x00, 0x00, 0x1c, 0x00, 0x00, 0x00, 0x38, 0x00, 0x00, 0x00,
  0x0f, 0x00, 0x00, 0x00, 0x73, 0x65, 0x72, 0x76, 0x69, 0x6e, 0x67, 0x5f,
  0x64, 0x65, 0x66, 0x61, 0x75, 0x6c, 0x74, 0x00, 0x01, 0x00, 0x00, 0x00,
  0x04, 0x00, 0x00, 0x00, 0x98, 0xff, 0xff, 0xff, 0x0a, 0x00, 0x00, 0x00,
  0x04, 0x00, 0x00, 0x00, 0x07, 0x00, 0x00, 0x00, 0x64, 0x65, 0x6e, 0x73,
  0x65, 0x5f, 0x32, 0x00, 0x01, 0x00, 0x00, 0x00, 0x04, 0x00, 0x00, 0x00,
  0xca, 0xf7, 0xff, 0xff, 0x04, 0x00, 0x00, 0x00, 0x0b, 0x00, 0x00, 0x00,
  0x64, 0x65, 0x6e, 0x73, 0x65, 0x5f, 0x69, 0x6e, 0x70, 0x75, 0x74, 0x00,
  0x02, 0x00, 0x00, 0x00, 0x34, 0x00, 0x00, 0x00, 0x04, 0x00, 0x00, 0x00,
  0xdc, 0xff, 0xff, 0xff, 0x0d, 0x00, 0x00, 0x00, 0x04, 0x00, 0x00, 0x00,
  0x13, 0x00, 0x00, 0x00, 0x43, 0x4f, 0x4e, 0x56, 0x45, 0x52, 0x53, 0x49,
  0x4f, 0x4e, 0x5f, 0x4d, 0x45, 0x54, 0x41, 0x44, 0x41, 0x54, 0x41, 0x00,
  0x08, 0x00, 0x0c, 0x00, 0x08, 0x00, 0x04, 0x00, 0x08, 0x00, 0x00, 0x00,
  0x0c, 0x00, 0x00, 0x00, 0x04, 0x00, 0x00, 0x00, 0x13, 0x00, 0x00, 0x00,
  0x6d, 0x69, 0x6e, 0x5f, 0x72, 0x75, 0x6e, 0x74, 0x69, 0x6d, 0x65, 0x5f,
  0x76, 0x65, 0x72, 0x73, 0x69, 0x6f, 0x6e, 0x00, 0x0e, 0x00, 0x00, 0x00,
  0x2c, 0x07, 0x00, 0x00, 0x24, 0x07, 0x00, 0x00, 0xa8, 0x06, 0x00, 0x00,
  0x8c, 0x06, 0x00, 0x00, 0x58, 0x06, 0x00, 0x00, 0xdc, 0x05, 0x00, 0x00,
  0x00, 0x02, 0x00, 0x00, 0xac, 0x00, 0x00, 0x00, 0xa4, 0x00, 0x00, 0x00,
  0x9c, 0x00, 0x00, 0x00, 0x94, 0x00, 0x00, 0x00, 0x8c, 0x00, 0x00, 0x00,
  0x6c, 0x00, 0x00, 0x00, 0x04, 0x00, 0x00, 0x00, 0x7a, 0xf8, 0xff, 0xff,
  0x04, 0x00, 0x00, 0x00, 0x58, 0x00, 0x00, 0x00, 0x0c, 0x00, 0x00, 0x00,
  0x08, 0x00, 0x0e, 0x00, 0x08, 0x00, 0x04, 0x00, 0x08, 0x00, 0x00, 0x00,
  0x10, 0x00, 0x00, 0x00, 0x28, 0x00, 0x00, 0x00, 0x00, 0x00, 0x06, 0x00,
  0x08, 0x00, 0x04, 0x00, 0x06, 0x00, 0x00, 0x00, 0x04, 0x00, 0x00, 0x00,
  0x01, 0x00, 0x00, 0x00, 0xea, 0x03, 0x00, 0x00, 0x00, 0x00, 0x0a, 0x00,
  0x10, 0x00, 0x0c, 0x00, 0x08, 0x00, 0x04, 0x00, 0x0a, 0x00, 0x00, 0x00,
  0x02, 0x00, 0x00, 0x00, 0x02, 0x00, 0x00, 0x00, 0x04, 0x00, 0x00, 0x00,
  0x06, 0x00, 0x00, 0x00, 0x32, 0x2e, 0x31, 0x32, 0x2e, 0x30, 0x00, 0x00,
  0xde, 0xf8, 0xff, 0xff, 0x04, 0x00, 0x00, 0x00, 0x10, 0x00, 0x00, 0x00,
  0x31, 0x2e, 0x35, 0x2e, 0x30, 0x00, 0x00, 0x00, 0x00, 0x00, 0x00, 0x00,
  0x00, 0x00, 0x00, 0x00, 0xec, 0xf3, 0xff, 0xff, 0xf0, 0xf3, 0xff, 0xff,
  0xf4, 0xf3, 0xff, 0xff, 0xf8, 0xf3, 0xff, 0xff, 0x0a, 0xf9, 0xff, 0xff,
  0x04, 0x00, 0x00, 0x00, 0x44, 0x01, 0x00, 0x00, 0x85, 0xc1, 0xa9, 0xbe,
  0xfc, 0xf5, 0x97, 0xbd, 0x14, 0x54, 0xdf, 0xbe, 0x15, 0xaf, 0x59, 0x3e,
  0x21, 0x94, 0x37, 0x3d, 0x88, 0x0a, 0x44, 0xbd, 0x20, 0x49, 0x53, 0xbc,
  0xa8, 0x74, 0x31, 0xbe, 0x7d, 0xf1, 0x88, 0x3d, 0xe0, 0x72, 0x4c, 0x3d,
  0x64, 0x02, 0x99, 0xbe, 0x33, 0xae, 0x61, 0xbe, 0xd1, 0x24, 0x29, 0x3e,
  0x94, 0x27, 0x9c, 0xbd, 0x54, 0x4c, 0x02, 0xbe, 0x30, 0x53, 0x80, 0x3c,
  0x2e, 0x1b, 0x81, 0x3e, 0x40, 0x8f, 0x1b, 0xbd, 0x7b, 0x72, 0x8d, 0x3e,
  0x40, 0x34, 0x11, 0xbe, 0x87, 0xb7, 0x76, 0xbe, 0xa0, 0xd7, 0xb7, 0x3c,
  0x30, 0x57, 0x59, 0x3d, 0x72, 0x3c, 0x2c, 0x3e, 0xc2, 0x47, 0x84, 0xbe,
  0x20, 0xbf, 0xe6, 0x3c, 0x51, 0x52, 0x30, 0x3e, 0x38, 0x91, 0x82, 0xbe,
  0xdd, 0xa8, 0x25, 0x3d, 0x75, 0x62, 0x91, 0xbe, 0x17, 0x1b, 0xfc, 0x3d,
  0x31, 0x94, 0x38, 0x3e, 0xd2, 0xaf, 0xc4, 0xbe, 0x00, 0xb1, 0x98, 0xbe,
  0xed, 0x20, 0xb7, 0xbe, 0xca, 0x54, 0x6f, 0x3d, 0xff, 0x5e, 0x94, 0x3d,
  0x49, 0xaa, 0xfa, 0x3c, 0xed, 0x61, 0x0f, 0xbe, 0xb7, 0x18, 0x54, 0xbe,
  0x00, 0x9a, 0x41, 0xbc, 0xbc, 0x87, 0xaf, 0x3e, 0x9c, 0xd9, 0x0e, 0x3e,
  0xb6, 0x50, 0xe1, 0x3d, 0x80, 0xfb, 0x1c, 0x3e, 0x53, 0x8b, 0x1f, 0xbd,
  0x3c, 0x33, 0x88, 0xbd, 0x0c, 0x1f, 0x0c, 0x3e, 0x30, 0x52, 0xb6, 0x3d,
  0x50, 0xa0, 0x01, 0xbe, 0x9e, 0x36, 0x22, 0x3e, 0x54, 0x82, 0x29, 0xbc,
  0x7f, 0x7a, 0x7d, 0xbe, 0xa8, 0xac, 0xfd, 0x3b, 0x81, 0xf6, 0x8c, 0xbe,
  0xa0, 0xd6, 0x8e, 0xbd, 0x00, 0x7c, 0xb0, 0x3c, 0x3e, 0xdb, 0x77, 0xbd,
  0x0d, 0x2a, 0x1f, 0x3e, 0xa4, 0x52, 0x33, 0x3e, 0xca, 0x8e, 0xc0, 0x3e,
  0xb8, 0x1c, 0x9f, 0x3d, 0x9b, 0x01, 0xa6, 0x3d, 0x45, 0xec, 0x72, 0x3c,
  0xea, 0xd6, 0x13, 0xbf, 0x72, 0xa7, 0x72, 0xbe, 0x02, 0xbf, 0x7a, 0x3d,
  0x42, 0xd3, 0xd0, 0x3e, 0xc8, 0x40, 0xad, 0xbe, 0x63, 0xc6, 0xd8, 0xbe,
  0x89, 0x50, 0x71, 0x3c, 0xc8, 0xe0, 0xc8, 0xbe, 0x55, 0x8b, 0x83, 0x3e,
  0x90, 0x6c, 0xa3, 0x3e, 0x35, 0xcc, 0xc4, 0xbd, 0xe8, 0xcd, 0x36, 0x3e,
  0xc0, 0x46, 0x0a, 0x3e, 0x5e, 0x98, 0x00, 0xbe, 0x45, 0xd7, 0x65, 0x3d,
  0x80, 0xcc, 0x29, 0xbd, 0xaa, 0x26, 0xd7, 0x3d, 0x5a, 0xfa, 0xff, 0xff,
  0x04, 0x00, 0x00, 0x00, 0xcc, 0x03, 0x00, 0x00, 0xa3, 0x4b, 0x9c, 0xbe,
  0xf0, 0x24, 0x03, 0xbe, 0x00, 0x37, 0xc9, 0xba, 0x90, 0x2c, 0xbc, 0x3e,
  0x36, 0xcf, 0x88, 0xbe, 0xdc, 0x19, 0x7a, 0x3e, 0x02, 0x13, 0xae, 0x3e,
  0x3d, 0x95, 0x6e, 0xbe, 0xe3, 0xdc, 0x40, 0xbe, 0x5c, 0x76, 0xfa, 0x3d,
  0x97, 0xd3, 0x91, 0xbe, 0xc8, 0x81, 0x89, 0x3e, 0x19, 0x00, 0xd0, 0xbe,
  0x68, 0x14, 0x2a, 0x3c, 0x2e, 0xf4, 0x98, 0xbe, 0xac, 0xee, 0x6e, 0x3e,
  0x56, 0x0c, 0x68, 0x3e, 0x24, 0xb7, 0x02, 0xbe, 0xd2, 0x07, 0x68, 0xbe,
  0x70, 0x86, 0x6d, 0x3d, 0x80, 0x55, 0xa7, 0xbd, 0xa0, 0x61, 0xee, 0x3d,
  0x06, 0x52, 0xcc, 0xbe, 0x00, 0x65, 0x52, 0xbd, 0x1e, 0x03, 0x87, 0x3e,
  0x7c, 0x41, 0x8a, 0xbe, 0xbc, 0x80, 0xb5, 0x3d, 0xe1, 0x76, 0x8f, 0xbe,
  0x00, 0x3f, 0x21, 0x3d, 0x12, 0x12, 0x75, 0xbe, 0x5a, 0xc2, 0xdc, 0xbc,
  0x0a, 0x3e, 0xcf, 0x3d, 0x88, 0x8e, 0x12, 0xbe, 0xda, 0x75, 0x81, 0x3e,
  0x7e, 0x98, 0x02, 0x3e, 0x26, 0xb0, 0xba, 0x3e, 0x75, 0xcc, 0x8a, 0xbe,
  0x44, 0x08, 0x84, 0x3e, 0xec, 0x28, 0x53, 0x3e, 0x88, 0x40, 0x99, 0xbd,
  0x49, 0x47, 0xaa, 0xbe, 0x5d, 0xfa, 0x7d, 0xbe, 0x14, 0xfe, 0xd1, 0x3e,
  0xea, 0x8c, 0x4c, 0x3e, 0x2b, 0x54, 0x4b, 0xbe, 0xb2, 0xbf, 0xbc, 0x3e,
  0x90, 0x57, 0xfd, 0xbc, 0xe2, 0x70, 0x95, 0xbe, 0xb8, 0x2b, 0x17, 0xbe,
  0x00, 0xb2, 0xd6, 0x3d, 0x28, 0xdb, 0x2b, 0x3e, 0x27, 0xce, 0x44, 0xbe,
  0xfe, 0xe7, 0x6b, 0xbe, 0x10, 0xac, 0x3c, 0xbd, 0x56, 0x9c, 0x97, 0x3e,
  0xa0, 0x3a, 0x77, 0x3e, 0x90, 0x21, 0xab, 0x3c, 0xc6, 0xe8, 0x8a, 0xbe,
  0xd0, 0x62, 0x8c, 0xbd, 0x50, 0x7d, 0xc7, 0x3e, 0x58, 0xa3, 0xe9, 0xbd,
  0xe5, 0xab, 0x41, 0xbe, 0x10, 0x38, 0x28, 0x3d, 0x5c, 0xb3, 0x74, 0x3e,
  0x20, 0x44, 0x64, 0x3e, 0xa4, 0xd8, 0x21, 0x3e, 0x70, 0x49, 0x19, 0xbe,
  0x29, 0xbe, 0x39, 0xbe, 0x76, 0x0a, 0x92, 0xbe, 0xb0, 0x6d, 0x94, 0x3c,
  0x3c, 0xc6, 0x5a, 0xbe, 0x10, 0xd7, 0xf2, 0x3c, 0xe1, 0x7a, 0x4d, 0x3e,
  0xf8, 0xfe, 0x1e, 0xbe, 0xa2, 0x44, 0xaf, 0x3e, 0xeb, 0x16, 0x67, 0x3d,
  0xdf, 0x25, 0xe4, 0xbd, 0x38, 0xb0, 0x50, 0x3e, 0xf4, 0x23, 0xe2, 0x3e,
  0x45, 0x16, 0xdf, 0xbd, 0x56, 0x8d, 0xbf, 0x3e, 0x85, 0x06, 0x88, 0xbc,
  0x54, 0x0f, 0xb0, 0x3e, 0xf0, 0x8f, 0x33, 0xbd, 0x2b, 0xaf, 0x96, 0xbe,
  0xc1, 0x74, 0xa2, 0x3e, 0x0f, 0xa3, 0xc4, 0xbe, 0x81, 0x84, 0xc8, 0xbe,
  0x1f, 0x96, 0x0a, 0xbd, 0xb8, 0x0a, 0x5c, 0x3e, 0x57, 0xb9, 0xd3, 0xbe,
  0x3b, 0x63, 0xbb, 0xbe, 0x1c, 0x30, 0x9f, 0x3d, 0x0f, 0x07, 0xcb, 0xbc,
  0xfb, 0x98, 0x8b, 0x3d, 0xca, 0xe2, 0xb3, 0x3e, 0x3e, 0xfa, 0x37, 0x3e,
  0x59, 0x05, 0x53, 0x3e, 0x14, 0xbe, 0xbf, 0xbe, 0xf8, 0x89, 0x84, 0x3c,
  0xe6, 0x7d, 0x11, 0xbe, 0x8b, 0x68, 0x22, 0xbe, 0x17, 0x5b, 0x1d, 0x3e,
  0x5f, 0x61, 0xf7, 0xbe, 0x51, 0xc5, 0xcc, 0xbe, 0x8a, 0x81, 0x5c, 0x3e,
  0xb1, 0x03, 0x0f, 0xbc, 0xc4, 0xa1, 0x6d, 0x3e, 0xff, 0x6a, 0x67, 0xbe,
  0x54, 0xb8, 0x84, 0x3e, 0x20, 0x32, 0x21, 0xbc, 0x9a, 0xaa, 0xe6, 0xbe,
  0x36, 0x23, 0xbc, 0x3d, 0x20, 0xd5, 0x15, 0x3e, 0xf0, 0x5c, 0x54, 0x3e,
  0xeb, 0x3c, 0x98, 0x3e, 0x60, 0xbb, 0x80, 0xbe, 0x4c, 0x54, 0xbd, 0x3e,
  0xd0, 0xbf, 0x74, 0xbd, 0x6e, 0xff, 0xbc, 0x3e, 0x9f, 0x19, 0x91, 0xbe,
  0xb0, 0x48, 0x4d, 0x3d, 0xe7, 0x7c, 0x9e, 0xbe, 0x34, 0x5d, 0xc1, 0xbe,
  0x1e, 0x14, 0xa4, 0xbe, 0x80, 0xd4, 0xa2, 0x3e, 0xda, 0x1e, 0x33, 0xbe,
  0xd0, 0x70, 0xc4, 0x3c, 0x80, 0xc6, 0x0e, 0xbe, 0xa5, 0x2b, 0x99, 0xbd,
  0xbe, 0x32, 0xdf, 0xbe, 0xec, 0x4d, 0xa6, 0x3d, 0x1d, 0x93, 0xbd, 0xbe,
  0x15, 0xb8, 0xd0, 0x3d, 0xa0, 0x1e, 0x22, 0x3e, 0x42, 0xd2, 0x58, 0xbe,
  0x66, 0x2a, 0x83, 0xbe, 0xf4, 0x16, 0xb0, 0x3e, 0xdc, 0x22, 0xcb, 0x3e,
  0x18, 0xac, 0x8b, 0x3e, 0xe0, 0x76, 0x6f, 0xbd, 0x2a, 0xba, 0xac, 0xbe,
  0xdf, 0x19, 0xa5, 0xbe, 0x84, 0x86, 0xa9, 0x3e, 0x14, 0xe1, 0x11, 0x3c,
  0xc8, 0xa9, 0x56, 0x3d, 0xd0, 0x7e, 0x3f, 0x3e, 0x5d, 0xf1, 0xb3, 0x3e,
  0x65, 0x2e, 0x8b, 0xbe, 0xb0, 0x5a, 0x39, 0x3d, 0xb7, 0x73, 0x47, 0x3e,
  0xa6, 0xbb, 0x47, 0xbe, 0x54, 0x2d, 0x9b, 0xbe, 0xe0, 0x88, 0xd6, 0xbd,
  0xc2, 0x5f, 0x52, 0xbe, 0xce, 0x3c, 0xcd, 0x3e, 0x14, 0xc3, 0x2b, 0x3e,
  0xb6, 0x06, 0x91, 0x3e, 0xd0, 0x9b, 0xc7, 0x3e, 0xc8, 0x5f, 0x48, 0x3d,
  0xc1, 0xb9, 0xb2, 0xbe, 0xb0, 0x93, 0x55, 0x3d, 0x7e, 0xd3, 0xe9, 0xbe,
  0xe0, 0x5f, 0x04, 0xbe, 0x20, 0x4f, 0x80, 0xbe, 0x06, 0x77, 0xed, 0xbd,
  0xd0, 0x05, 0x02, 0xbf, 0x28, 0x75, 0x67, 0xbd, 0xa1, 0x20, 0x52, 0xbe,
  0xc2, 0x6f, 0x56, 0x3e, 0x8c, 0xd9, 0x12, 0x3e, 0xfe, 0x52, 0xa3, 0x3e,
  0x00, 0xaf, 0x32, 0xbd, 0xc6, 0x06, 0x97, 0x3e, 0x54, 0x4d, 0xf8, 0xbd,
  0xf8, 0x3d, 0xc9, 0x3d, 0x14, 0xc0, 0xce, 0xbe, 0x94, 0xe1, 0x86, 0xbe,
  0x80, 0xc6, 0x56, 0xbe, 0xcd, 0xea, 0x62, 0xbe, 0xaa, 0x44, 0x16, 0x3c,
  0xc2, 0x36, 0xce, 0x3e, 0xe0, 0xf7, 0x16, 0x3e, 0xe0, 0x70, 0xb8, 0xbe,
  0xba, 0x46, 0x97, 0xbe, 0x7c, 0x6b, 0x97, 0x3d, 0x31, 0x5e, 0xc0, 0xbe,
  0x68, 0xbb, 0xac, 0x3d, 0xec, 0xe3, 0xa0, 0xbd, 0xa6, 0x05, 0xa0, 0xbe,
  0x08, 0xd8, 0xb1, 0xbe, 0xc8, 0x1c, 0x51, 0x3e, 0xc8, 0x87, 0xe9, 0x3d,
  0xdd, 0x3d, 0xbf, 0xbe, 0xa4, 0x7c, 0x5c, 0x3e, 0xe8, 0x8d, 0x4d, 0xbe,
  0xce, 0x3f, 0xc3, 0xbe, 0x06, 0x97, 0x86, 0x3e, 0xa0, 0xe3, 0x3a, 0xbd,
  0x74, 0x86, 0x72, 0xbe, 0x56, 0x1b, 0x8a, 0x3e, 0x72, 0xf5, 0x8a, 0xbe,
  0x99, 0xf5, 0xa5, 0xbe, 0xcc, 0xea, 0xc8, 0xbe, 0x63, 0x87, 0x2d, 0xbe,
  0xd2, 0xe0, 0x95, 0xbe, 0x22, 0xb5, 0x96, 0x3e, 0xa2, 0xb7, 0xdc, 0xbe,
  0x50, 0x44, 0x41, 0x3d, 0xe0, 0x9d, 0xcd, 0xbc, 0x6f, 0x50, 0x88, 0xbe,
  0x6f, 0xd3, 0xd6, 0xbe, 0x54, 0xd4, 0x69, 0x3e, 0x88, 0x4c, 0x93, 0x3e,
  0x41, 0x0c, 0x86, 0x3e, 0x80, 0x5e, 0xbf, 0x3d, 0xeb, 0xfb, 0x7f, 0xbe,
  0x00, 0x1c, 0x5f, 0x3a, 0xa8, 0xd1, 0x9e, 0x3e, 0x71, 0xa6, 0xa9, 0xbe,
  0x61, 0x1e, 0xa8, 0x3e, 0x40, 0x86, 0x1d, 0x3e, 0x83, 0x4b, 0xad, 0xbd,
  0x76, 0x90, 0x47, 0x3e, 0xe6, 0x12, 0x9f, 0x3e, 0xe6, 0xbd, 0xbc, 0xbe,
  0x10, 0x22, 0x1f, 0xbd, 0x30, 0xc5, 0x40, 0x3e, 0x88, 0xa8, 0xa1, 0xbd,
  0x50, 0x5b, 0xb9, 0xbc, 0x50, 0x60, 0x98, 0xbc, 0x8c, 0xd5, 0xa3, 0xbd,
  0x80, 0xa0, 0x22, 0xbe, 0x16, 0x9c, 0x90, 0x3e, 0x0e, 0x95, 0x25, 0xbe,
  0x89, 0x5e, 0xb2, 0xbe, 0x90, 0x92, 0x72, 0xbd, 0xfd, 0xa0, 0xe2, 0xbe,
  0x1f, 0x5f, 0x86, 0x3e, 0x44, 0x52, 0x99, 0xbe, 0x9f, 0x81, 0xad, 0xbe,
  0x05, 0x4e, 0xb7, 0x3d, 0xa0, 0xb0, 0xa9, 0xbd, 0x32, 0xfe, 0xff, 0xff,
  0x04, 0x00, 0x00, 0x00, 0x6c, 0x00, 0x00, 0x00, 0xfa, 0xd6, 0x35, 0x3f,
  0xdf, 0x6b, 0x0f, 0xbe, 0xc8, 0x7a, 0xbf, 0x3d, 0x80, 0x94, 0xf5, 0x3c,
  0xaa, 0xdf, 0x14, 0xbf, 0x6a, 0x58, 0x63, 0xbe, 0x00, 0x14, 0x20, 0xba,
  0x16, 0x88, 0x00, 0xbf, 0x0a, 0xa7, 0x21, 0xbf, 0xd7, 0x62, 0x80, 0x3d,
  0x7a, 0x5d, 0x23, 0xbf, 0x2b, 0xd4, 0xc2, 0x3d, 0xf4, 0xfc, 0xe4, 0xbe,
  0xef, 0x01, 0x24, 0x3e, 0xb0, 0xa9, 0x7d, 0x3c, 0xdc, 0x7c, 0xaf, 0xbe,
  0x3b, 0x75, 0x05, 0x3f, 0xd4, 0x2a, 0x48, 0xbe, 0x44, 0x64, 0x43, 0xbd,
  0xf8, 0xc1, 0x07, 0x3e, 0x61, 0x23, 0x59, 0xbc, 0x7c, 0x53, 0x5c, 0xbf,
  0x42, 0x49, 0x18, 0xbf, 0xb5, 0xa6, 0x6c, 0x3e, 0xf8, 0x6d, 0x65, 0xbe,
  0x73, 0x50, 0x06, 0x3f, 0x10, 0xc5, 0xf1, 0xbd, 0xaa, 0xfe, 0xff, 0xff,
  0x04, 0x00, 0x00, 0x00, 0x24, 0x00, 0x00, 0x00, 0x4c, 0x08, 0x4c, 0xbe,
  0x00, 0x00, 0x00, 0x00, 0x00, 0x00, 0x00, 0x00, 0xba, 0xa5, 0x7a, 0xbe,
  0xa0, 0xb2, 0x04, 0xbe, 0x00, 0x00, 0x00, 0x00, 0x92, 0x66, 0x93, 0xbe,
  0x83, 0x23, 0x9b, 0xbe, 0x00, 0x00, 0x00, 0x00, 0xda, 0xfe, 0xff, 0xff,
  0x04, 0x00, 0x00, 0x00, 0x0c, 0x00, 0x00, 0x00, 0xb9, 0xba, 0xe5, 0x3d,
  0xa7, 0x51, 0x86, 0xbe, 0x69, 0x2c, 0x13, 0x3e, 0xf2, 0xfe, 0xff, 0xff,
  0x04, 0x00, 0x00, 0x00, 0x6c, 0x00, 0x00, 0x00, 0x00, 0x00, 0x00, 0x00,
  0xeb, 0x82, 0xc4, 0xbe, 0x00, 0x00, 0x00, 0x00, 0x31, 0x39, 0xaf, 0xbd,
  0xe5, 0x42, 0x24, 0xbe, 0x00, 0x00, 0x00, 0x00, 0x00, 0x00, 0x00, 0x00,
  0x00, 0x00, 0x00, 0x00, 0x0f, 0x60, 0x8b, 0xbd, 0x84, 0x80, 0x9b, 0xbc,
  0x68, 0xc7, 0x27, 0xbe, 0x8e, 0xb6, 0x02, 0xbd, 0x3e, 0xe3, 0x54, 0x3e,
  0x00, 0x00, 0x00, 0x00, 0x8a, 0x8f, 0xb1, 0xbd, 0x00, 0x00, 0x00, 0x00,
  0x04, 0xab, 0x32, 0xbd, 0x00, 0x00, 0x00, 0x00, 0x8c, 0x82, 0xfe, 0xbd,
  0x00, 0x00, 0x00, 0x00, 0x70, 0x21, 0x14, 0xbe, 0x00, 0x00, 0x00, 0x00,
  0x00, 0x00, 0x00, 0x00, 0xd7, 0x4d, 0x79, 0xbd, 0x56, 0xdb, 0xa5, 0xbb,
  0x00, 0x00, 0x00, 0x00, 0x55, 0x2e, 0x7e, 0xbd, 0x5c, 0xfa, 0xff, 0xff,
  0x60, 0xfa, 0xff, 0xff, 0x0f, 0x00, 0x00, 0x00, 0x4d, 0x4c, 0x49, 0x52,
  0x20, 0x43, 0x6f, 0x6e, 0x76, 0x65, 0x72, 0x74, 0x65, 0x64, 0x2e, 0x00,
  0x01, 0x00, 0x00, 0x00, 0x14, 0x00, 0x00, 0x00, 0x00, 0x00, 0x0e, 0x00,
  0x18, 0x00, 0x14, 0x00, 0x10, 0x00, 0x0c, 0x00, 0x08, 0x00, 0x04, 0x00,
  0x0e, 0x00, 0x00, 0x00, 0x14, 0x00, 0x00, 0x00, 0x1c, 0x00, 0x00, 0x00,
  0x24, 0x01, 0x00, 0x00, 0x28, 0x01, 0x00, 0x00, 0x2c, 0x01, 0x00, 0x00,
  0x04, 0x00, 0x00, 0x00, 0x6d, 0x61, 0x69, 0x6e, 0x00, 0x00, 0x00, 0x00,
  0x04, 0x00, 0x00, 0x00, 0xcc, 0x00, 0x00, 0x00, 0x84, 0x00, 0x00, 0x00,
  0x50, 0x00, 0x00, 0x00, 0x14, 0x00, 0x00, 0x00, 0x00, 0x00, 0x0e, 0x00,
  0x1a, 0x00, 0x14, 0x00, 0x10, 0x00, 0x0c, 0x00, 0x0b, 0x00, 0x04, 0x00,
  0x0e, 0x00, 0x00, 0x00, 0x1c, 0x00, 0x00, 0x00, 0x00, 0x00, 0x00, 0x09,
  0x1c, 0x00, 0x00, 0x00, 0x20, 0x00, 0x00, 0x00, 0x01, 0x00, 0x00, 0x00,
  0x00, 0x00, 0x06, 0x00, 0x08, 0x00, 0x04, 0x00, 0x06, 0x00, 0x00, 0x00,
  0x00, 0x00, 0x80, 0x3f, 0x01, 0x00, 0x00, 0x00, 0x0a, 0x00, 0x00, 0x00,
  0x01, 0x00, 0x00, 0x00, 0x09, 0x00, 0x00, 0x00, 0x9a, 0xff, 0xff, 0xff,
  0x10, 0x00, 0x00, 0x00, 0x00, 0x00, 0x00, 0x08, 0x0c, 0x00, 0x00, 0x00,
  0x10, 0x00, 0x00, 0x00, 0x24, 0xfb, 0xff, 0xff, 0x01, 0x00, 0x00, 0x00,
  0x09, 0x00, 0x00, 0x00, 0x03, 0x00, 0x00, 0x00, 0x08, 0x00, 0x00, 0x00,
  0x06, 0x00, 0x00, 0x00, 0x02, 0x00, 0x00, 0x00, 0xca, 0xff, 0xff, 0xff,
  0x10, 0x00, 0x00, 0x00, 0x00, 0x00, 0x00, 0x08, 0x10, 0x00, 0x00, 0x00,
  0x14, 0x00, 0x00, 0x00, 0xba, 0xff, 0xff, 0xff, 0x00, 0x00, 0x00, 0x01,
  0x01, 0x00, 0x00, 0x00, 0x08, 0x00, 0x00, 0x00, 0x03, 0x00, 0x00, 0x00,
  0x07, 0x00, 0x00, 0x00, 0x05, 0x00, 0x00, 0x00, 0x01, 0x00, 0x00, 0x00,
  0x00, 0x00, 0x0e, 0x00, 0x16, 0x00, 0x00, 0x00, 0x10, 0x00, 0x0c, 0x00,
  0x0b, 0x00, 0x04, 0x00, 0x0e, 0x00, 0x00, 0x00, 0x18, 0x00, 0x00, 0x00,
  0x00, 0x00, 0x00, 0x08, 0x18, 0x00, 0x00, 0x00, 0x1c, 0x00, 0x00, 0x00,
  0x00, 0x00, 0x06, 0x00, 0x08, 0x00, 0x07, 0x00, 0x06, 0x00, 0x00, 0x00,
  0x00, 0x00, 0x00, 0x01, 0x01, 0x00, 0x00, 0x00, 0x07, 0x00, 0x00, 0x00,
  0x03, 0x00, 0x00, 0x00, 0x00, 0x00, 0x00, 0x00, 0x04, 0x00, 0x00, 0x00,
  0x03, 0x00, 0x00, 0x00, 0x01, 0x00, 0x00, 0x00, 0x0a, 0x00, 0x00, 0x00,
  0x01, 0x00, 0x00, 0x00, 0x00, 0x00, 0x00, 0x00, 0x0b, 0x00, 0x00, 0x00,
  0x04, 0x04, 0x00, 0x00, 0x94, 0x03, 0x00, 0x00, 0x24, 0x03, 0x00, 0x00,
  0xd0, 0x02, 0x00, 0x00, 0x88, 0x02, 0x00, 0x00, 0x3c, 0x02, 0x00, 0x00,
  0xf0, 0x01, 0x00, 0x00, 0x68, 0x01, 0x00, 0x00, 0xd8, 0x00, 0x00, 0x00,
  0x60, 0x00, 0x00, 0x00, 0x04, 0x00, 0x00, 0x00, 0x3e, 0xfc, 0xff, 0xff,
  0x00, 0x00, 0x00, 0x01, 0x14, 0x00, 0x00, 0x00, 0x1c, 0x00, 0x00, 0x00,
  0x1c, 0x00, 0x00, 0x00, 0x0b, 0x00, 0x00, 0x00, 0x34, 0x00, 0x00, 0x00,
  0x02, 0x00, 0x00, 0x00, 0xff, 0xff, 0xff, 0xff, 0x03, 0x00, 0x00, 0x00,
  0x28, 0xfc, 0xff, 0xff, 0x19, 0x00, 0x00, 0x00, 0x53, 0x74, 0x61, 0x74,
  0x65, 0x66, 0x75, 0x6c, 0x50, 0x61, 0x72, 0x74, 0x69, 0x74, 0x69, 0x6f,
  0x6e, 0x65, 0x64, 0x43, 0x61, 0x6c, 0x6c, 0x3a, 0x30, 0x00, 0x00, 0x00,
  0x02, 0x00, 0x00, 0x00, 0x01, 0x00, 0x00, 0x00, 0x03, 0x00, 0x00, 0x00,
  0x96, 0xfc, 0xff, 0xff, 0x00, 0x00, 0x00, 0x01, 0x14, 0x00, 0x00, 0x00,
  0x1c, 0x00, 0x00, 0x00, 0x1c, 0x00, 0x00, 0x00, 0x0a, 0x00, 0x00, 0x00,
  0x50, 0x00, 0x00, 0x00, 0x02, 0x00, 0x00, 0x00, 0xff, 0xff, 0xff, 0xff,
  0x03, 0x00, 0x00, 0x00, 0x80, 0xfc, 0xff, 0xff, 0x34, 0x00, 0x00, 0x00,
  0x73, 0x65, 0x71, 0x75, 0x65, 0x6e, 0x74, 0x69, 0x61, 0x6c, 0x2f, 0x64,
  0x65, 0x6e, 0x73, 0x65, 0x5f, 0x32, 0x2f, 0x4d, 0x61, 0x74, 0x4d, 0x75,
  0x6c, 0x3b, 0x73, 0x65, 0x71, 0x75, 0x65, 0x6e, 0x74, 0x69, 0x61, 0x6c,
  0x2f, 0x64, 0x65, 0x6e, 0x73, 0x65, 0x5f, 0x32, 0x2f, 0x42, 0x69, 0x61,
  0x73, 0x41, 0x64, 0x64, 0x00, 0x00, 0x00, 0x00, 0x02, 0x00, 0x00, 0x00,
  0x01, 0x00, 0x00, 0x00, 0x03, 0x00, 0x00, 0x00, 0x0a, 0xfd, 0xff, 0xff,
  0x00, 0x00, 0x00, 0x01, 0x14, 0x00, 0x00, 0x00, 0x1c, 0x00, 0x00, 0x00,
  0x1c, 0x00, 0x00, 0x00, 0x09, 0x00, 0x00, 0x00, 0x68, 0x00, 0x00, 0x00,
  0x02, 0x00, 0x00, 0x00, 0xff, 0xff, 0xff, 0xff, 0x1b, 0x00, 0x00, 0x00,
  0xf4, 0xfc, 0xff, 0xff, 0x4c, 0x00, 0x00, 0x00, 0x73, 0x65, 0x71, 0x75,
  0x65, 0x6e, 0x74, 0x69, 0x61, 0x6c, 0x2f, 0x64, 0x65, 0x6e, 0x73, 0x65,
  0x5f, 0x31, 0x2f, 0x4d, 0x61, 0x74, 0x4d, 0x75, 0x6c, 0x3b, 0x73, 0x65,
  0x71, 0x75, 0x65, 0x6e, 0x74, 0x69, 0x61, 0x6c, 0x2f, 0x64, 0x65, 0x6e,
  0x73, 0x65, 0x5f, 0x31, 0x2f, 0x52, 0x65, 0x6c, 0x75, 0x3b, 0x73, 0x65,
  0x71, 0x75, 0x65, 0x6e, 0x74, 0x69, 0x61, 0x6c, 0x2f, 0x64, 0x65, 0x6e,
  0x73, 0x65, 0x5f, 0x31, 0x2f, 0x42, 0x69, 0x61, 0x73, 0x41, 0x64, 0x64,
  0x00, 0x00, 0x00, 0x00, 0x02, 0x00, 0x00, 0x00, 0x01, 0x00, 0x00, 0x00,
  0x1b, 0x00, 0x00, 0x00, 0x96, 0xfd, 0xff, 0xff, 0x00, 0x00, 0x00, 0x01,
  0x14, 0x00, 0x00, 0x00, 0x1c, 0x00, 0x00, 0x00, 0x1c, 0x00, 0x00, 0x00,
  0x08, 0x00, 0x00, 0x00, 0x60, 0x00, 0x00, 0x00, 0x02, 0x00, 0x00, 0x00,
  0xff, 0xff, 0xff, 0xff, 0x09, 0x00, 0x00, 0x00, 0x80, 0xfd, 0xff, 0xff,
  0x46, 0x00, 0x00, 0x00, 0x73, 0x65, 0x71, 0x75, 0x65, 0x6e, 0x74, 0x69,
  0x61, 0x6c, 0x2f, 0x64, 0x65, 0x6e, 0x73, 0x65, 0x2f, 0x4d, 0x61, 0x74,
  0x4d, 0x75, 0x6c, 0x3b, 0x73, 0x65, 0x71, 0x75, 0x65, 0x6e, 0x74, 0x69,
  0x61, 0x6c, 0x2f, 0x64, 0x65, 0x6e, 0x73, 0x65, 0x2f, 0x52, 0x65, 0x6c,
  0x75, 0x3b, 0x73, 0x65, 0x71, 0x75, 0x65, 0x6e, 0x74, 0x69, 0x61, 0x6c,
  0x2f, 0x64, 0x65, 0x6e, 0x73, 0x65, 0x2f, 0x42, 0x69, 0x61, 0x73, 0x41,
  0x64, 0x64, 0x00, 0x00, 0x02, 0x00, 0x00, 0x00, 0x01, 0x00, 0x00, 0x00,
  0x09, 0x00, 0x00, 0x00, 0x86, 0xfe, 0xff, 0xff, 0x00, 0x00, 0x00, 0x01,
  0x10, 0x00, 0x00, 0x00, 0x10, 0x00, 0x00, 0x00, 0x07, 0x00, 0x00, 0x00,
  0x28, 0x00, 0x00, 0x00, 0xf4, 0xfd, 0xff, 0xff, 0x19, 0x00, 0x00, 0x00,
  0x73, 0x65, 0x71, 0x75, 0x65, 0x6e, 0x74, 0x69, 0x61, 0x6c, 0x2f, 0x64,
  0x65, 0x6e, 0x73, 0x65, 0x5f, 0x32, 0x2f, 0x4d, 0x61, 0x74, 0x4d, 0x75,
  0x6c, 0x00, 0x00, 0x00, 0x02, 0x00, 0x00, 0x00, 0x03, 0x00, 0x00, 0x00,
  0x1b, 0x00, 0x00, 0x00, 0xce, 0xfe, 0xff, 0xff, 0x00, 0x00, 0x00, 0x01,
  0x10, 0x00, 0x00, 0x00, 0x10, 0x00, 0x00, 0x00, 0x06, 0x00, 0x00, 0x00,
  0x28, 0x00, 0x00, 0x00, 0x3c, 0xfe, 0xff, 0xff, 0x19, 0x00, 0x00, 0x00,
  0x73, 0x65, 0x71, 0x75, 0x65, 0x6e, 0x74, 0x69, 0x61, 0x6c, 0x2f, 0x64,
  0x65, 0x6e, 0x73, 0x65, 0x5f, 0x31, 0x2f, 0x4d, 0x61, 0x74, 0x4d, 0x75,
  0x6c, 0x00, 0x00, 0x00, 0x02, 0x00, 0x00, 0x00, 0x1b, 0x00, 0x00, 0x00,
  0x09, 0x00, 0x00, 0x00, 0x16, 0xff, 0xff, 0xff, 0x00, 0x00, 0x00, 0x01,
  0x10, 0x00, 0x00, 0x00, 0x10, 0x00, 0x00, 0x00, 0x05, 0x00, 0x00, 0x00,
  0x24, 0x00, 0x00, 0x00, 0x84, 0xfe, 0xff, 0xff, 0x17, 0x00, 0x00, 0x00,
  0x73, 0x65, 0x71, 0x75, 0x65, 0x6e, 0x74, 0x69, 0x61, 0x6c, 0x2f, 0x64,
  0x65, 0x6e, 0x73, 0x65, 0x2f, 0x4d, 0x61, 0x74, 0x4d, 0x75, 0x6c, 0x00,
  0x02, 0x00, 0x00, 0x00, 0x09, 0x00, 0x00, 0x00, 0x03, 0x00, 0x00, 0x00,
  0x5a, 0xff, 0xff, 0xff, 0x00, 0x00, 0x00, 0x01, 0x10, 0x00, 0x00, 0x00,
  0x10, 0x00, 0x00, 0x00, 0x04, 0x00, 0x00, 0x00, 0x34, 0x00, 0x00, 0x00,
  0xc8, 0xfe, 0xff, 0xff, 0x27, 0x00, 0x00, 0x00, 0x73, 0x65, 0x71, 0x75,
  0x65, 0x6e, 0x74, 0x69, 0x61, 0x6c, 0x2f, 0x64, 0x65, 0x6e, 0x73, 0x65,
  0x2f, 0x42, 0x69, 0x61, 0x73, 0x41, 0x64, 0x64, 0x2f, 0x52, 0x65, 0x61,
  0x64, 0x56, 0x61, 0x72, 0x69, 0x61, 0x62, 0x6c, 0x65, 0x4f, 0x70, 0x00,
  0x01, 0x00, 0x00, 0x00, 0x09, 0x00, 0x00, 0x00, 0xaa, 0xff, 0xff, 0xff,
  0x00, 0x00, 0x00, 0x01, 0x10, 0x00, 0x00, 0x00, 0x10, 0x00, 0x00, 0x00,
  0x03, 0x00, 0x00, 0x00, 0x38, 0x00, 0x00, 0x00, 0x18, 0xff, 0xff, 0xff,
  0x29, 0x00, 0x00, 0x00, 0x73, 0x65, 0x71, 0x75, 0x65, 0x6e, 0x74, 0x69,
  0x61, 0x6c, 0x2f, 0x64, 0x65, 0x6e, 0x73, 0x65, 0x5f, 0x32, 0x2f, 0x42,
  0x69, 0x61, 0x73, 0x41, 0x64, 0x64, 0x2f, 0x52, 0x65, 0x61, 0x64, 0x56,
  0x61, 0x72, 0x69, 0x61, 0x62, 0x6c, 0x65, 0x4f, 0x70, 0x00, 0x00, 0x00,
  0x01, 0x00, 0x00, 0x00, 0x03, 0x00, 0x00, 0x00, 0x00, 0x00, 0x16, 0x00,
  0x18, 0x00, 0x14, 0x00, 0x00, 0x00, 0x10, 0x00, 0x0c, 0x00, 0x08, 0x00,
  0x00, 0x00, 0x00, 0x00, 0x00, 0x00, 0x07, 0x00, 0x16, 0x00, 0x00, 0x00,
  0x00, 0x00, 0x00, 0x01, 0x10, 0x00, 0x00, 0x00, 0x10, 0x00, 0x00, 0x00,
  0x02, 0x00, 0x00, 0x00, 0x38, 0x00, 0x00, 0x00, 0x84, 0xff, 0xff, 0xff,
  0x29, 0x00, 0x00, 0x00, 0x73, 0x65, 0x71, 0x75, 0x65, 0x6e, 0x74, 0x69,
  0x61, 0x6c, 0x2f, 0x64, 0x65, 0x6e, 0x73, 0x65, 0x5f, 0x31, 0x2f, 0x42,
  0x69, 0x61, 0x73, 0x41, 0x64, 0x64, 0x2f, 0x52, 0x65, 0x61, 0x64, 0x56,
  0x61, 0x72, 0x69, 0x61, 0x62, 0x6c, 0x65, 0x4f, 0x70, 0x00, 0x00, 0x00,
  0x01, 0x00, 0x00, 0x00, 0x1b, 0x00, 0x00, 0x00, 0x00, 0x00, 0x16, 0x00,
  0x1c, 0x00, 0x18, 0x00, 0x00, 0x00, 0x14, 0x00, 0x10, 0x00, 0x0c, 0x00,
  0x00, 0x00, 0x00, 0x00, 0x08, 0x00, 0x07, 0x00, 0x16, 0x00, 0x00, 0x00,
  0x00, 0x00, 0x00, 0x01, 0x14, 0x00, 0x00, 0x00, 0x20, 0x00, 0x00, 0x00,
  0x20, 0x00, 0x00, 0x00, 0x01, 0x00, 0x00, 0x00, 0x3c, 0x00, 0x00, 0x00,
  0x02, 0x00, 0x00, 0x00, 0xff, 0xff, 0xff, 0xff, 0x03, 0x00, 0x00, 0x00,
  0x04, 0x00, 0x04, 0x00, 0x04, 0x00, 0x00, 0x00, 0x1d, 0x00, 0x00, 0x00,
  0x73, 0x65, 0x72, 0x76, 0x69, 0x6e, 0x67, 0x5f, 0x64, 0x65, 0x66, 0x61,
  0x75, 0x6c, 0x74, 0x5f, 0x64, 0x65, 0x6e, 0x73, 0x65, 0x5f, 0x69, 0x6e,
  0x70, 0x75, 0x74, 0x3a, 0x30, 0x00, 0x00, 0x00, 0x02, 0x00, 0x00, 0x00,
  0x01, 0x00, 0x00, 0x00, 0x03, 0x00, 0x00, 0x00, 0x02, 0x00, 0x00, 0x00,
  0x20, 0x00, 0x00, 0x00, 0x04, 0x00, 0x00, 0x00, 0xf4, 0xff, 0xff, 0xff,
  0x19, 0x00, 0x00, 0x00, 0x00, 0x00, 0x00, 0x19, 0x0c, 0x00, 0x0c, 0x00,
  0x0b, 0x00, 0x00, 0x00, 0x00, 0x00, 0x04, 0x00, 0x0c, 0x00, 0x00, 0x00,
  0x09, 0x00, 0x00, 0x00, 0x00, 0x00, 0x00, 0x09
};
